fffff92d
ffffc6a4
00003170
00007751
ffffa8a6
ffff8ee6
ffffe0d3
ffffe8a2
ffffe980
ffffab2b
ffffa9f9
ffffbd79
00001418
000047ad
fffff90e
ffffb429
ffffed3e
00000d52
00006f7b
ffffddf2
ffffbd1e
000001dc
ffff8f93
ffffd55b
ffffa9e8
ffffc860
ffffa0b0
ffffc825
ffffd9e4
ffff95db
ffffd820
fffffb57
ffff980f
00006221
0000604c
0000727c
ffff9ea6
ffff8702
00007814
00006af0
00004d36
ffff9f1c
00002aba
00003f72
ffffca01
00006581
000040ff
ffffaafd
000013ec
ffffd4da
0000491b
ffffe0ce
00005cc1
ffffd8ca
000029fd
00000428
ffffeb4f
ffff824d
00007bdb
ffffec34
ffffd581
000060ad
ffff80d5
ffff9660
