00000032
0000007b
ffffff9e
00000033
ffffffc9
00000038
fffffffe
0000003a
ffffff9d
00000003
ffffffe7
ffffffad
ffffffb6
0000005f
00000027
00000060
0000001c
00000034
00000061
0000006e
ffffff8e
00000079
00000015
00000000
00000054
00000041
ffffffc7
0000001d
00000021
ffffff9d
ffffff8b
ffffffd0
00000037
ffffff91
0000003f
00000062
ffffffe0
ffffff85
00000031
00000009
0000003f
ffffffad
ffffffe5
ffffffa5
ffffff99
ffffffaa
00000002
0000005f
ffffffb5
fffffffe
00000025
ffffffd6
ffffff81
0000007e
0000002f
0000000b
ffffffd5
ffffffcd
ffffffcf
ffffffde
0000001b
00000031
00000041
ffffff9e
