fffffffe
00000004
00000001
00000002
00000002
00000003
00000002
00000004
00000000
00000000
fffffffe
00000004
00000000
00000000
fffffffe
fffffffe
00000001
00000000
00000001
00000001
00000004
fffffffe
00000002
00000004
00000000
fffffffe
fffffffe
ffffffff
00000001
fffffffe
00000003
ffffffff
fffffffc
fffffffc
fffffffc
00000001
ffffffff
fffffffe
00000001
fffffffc
00000000
00000001
fffffffc
fffffffd
ffffffff
fffffffe
00000004
ffffffff
00000001
fffffffd
00000003
fffffffd
00000002
00000000
ffffffff
00000000
00000000
fffffffe
fffffffd
fffffffe
00000004
fffffffe
00000002
fffffffe
