00000011
00000066
00000055
00000077
ffffff9a
0000004e
0000007c
0000005d
ffffffca
fffffffe
0000003a
ffffffdf
ffffffd0
fffffffa
0000005a
00000007
fffffff3
00000050
ffffff97
ffffffa6
ffffffc6
00000019
ffffffd8
00000067
fffffff1
ffffffb8
fffffffe
ffffffc9
00000076
00000056
00000038
00000026
ffffff83
00000076
00000020
00000023
0000000c
00000072
ffffffd9
00000052
00000071
0000002c
00000060
ffffffb0
ffffff9a
ffffffb6
ffffffa5
0000005c
ffffffe0
ffffffd5
00000040
0000002f
0000007e
ffffffef
ffffff8a
fffffff5
ffffff95
ffffff82
ffffffdd
00000051
ffffffa6
ffffffcf
00000013
ffffffd5
